[PAD]
[UNK]
[START]
[END]
!
"
#
$
%
&
'
(
)
*
+
,
-
.
/
0
1
2
3
4
5
6
7
8
9
:
;
<
=
>
?
@
[
\
]
^
_
`
a
b
c
d
e
f
g
h
i
j
k
l
m
n
o
p
q
r
s
t
u
v
w
x
y
z
{
|
}
~
£
°
æ
œ
—
‘
’
“
”
⁄
the
and
to
of
in
it
he
was
that
you
his
##s
my
had
as
for
with
but
her
at
she
is
on
me
not
they
have
be
him
this
said
all
so
we
what
from
one
there
were
out
no
up
when
by
if
would
which
then
them
an
are
##ing
could
your
been
do
into
##ed
their
who
like
now
or
will
man
time
little
can
just
more
about
very
some
down
know
see
back
did
##ly
how
well
over
before
only
upon
here
came
than
our
never
good
go
other
##d
old
after
come
don
again
has
##y
us
eyes
two
day
way
any
made
get
long
first
away
even
where
much
am
through
went
too
off
##er
looked
think
thought
head
great
its
still
say
should
mr
must
hand
##e
last
people
face
ll
something
why
make
room
right
once
let
took
look
nothing
got
every
asked
saw
take
own
life
such
door
these
himself
tell
most
night
found
going
may
while
re
house
holmes
ve
always
left
didn
ever
might
world
another
around
thing
oh
knew
king
heard
put
many
years
being
shall
those
three
yes
##t
##a
##r
home
though
told
mother
things
find
because
quite
place
father
want
yet
without
give
began
seemed
enough
few
really
turned
young
voice
woman
same
hands
new
myself
##n
next
each
moment
until
sure
##es
done
mind
felt
far
seen
sir
work
cried
soon
looking
gave
side
morning
anything
name
stood
prince
small
under
help
men
end
sat
better
however
course
light
white
heart
behind
##o
part
death
against
water
both
words
round
called
whole
poor
half
open
matter
boy
set
almost
wife
child
##ness
together
friend
dear
girl
everything
need
gone
best
black
days
##al
keep
since
air
red
##in
hear
god
dead
also
##h
kind
wasn
body
children
love
##l
table
feel
brought
fell
wanted
already
full
feet
perhaps
between
started
answered
across
dark
fire
human
having
son
bed
lay
mean
ran
hard
leave
word
ground
##i
earth
large
couldn
##on
rather
window
front
tried
beautiful
call
suddenly
thou
else
mrs
least
does
remember
towards
herself
along
case
ask
second
coming
##ity
rest
##or
happened
##ers
story
big
believe
hair
##ic
money
tree
lady
walked
high
opened
understand
times
##able
used
bit
taken
wish
till
held
strange
alone
passed
lost
point
miss
indeed
year
four
read
##ion
john
won
##ation
replied
sea
five
pretty
##k
within
among
family
please
near
blood
daughter
happy
person
smile
others
says
try
able
finally
##m
deep
##ment
someone
##ies
cannot
doing
maybe
stop
turn
kept
mouth
run
became
fine
##less
hope
sound
true
close
friends
ago
live
trying
##ted
care
reached
street
evening
bad
sorry
themselves
ready
floor
idea
speak
##est
known
princess
##p
##ry
use
everyone
power
##le
spoke
fear
given
gold
sun
stopped
slowly
watson
real
show
##en
above
chair
hundred
sent
##ia
eye
country
blue
cut
bring
sitting
talk
brother
##an
##man
##us
##ting
arms
met
making
past
##ful
##st
ship
hour
sort
clear
inside
longer
fact
nor
whom
business
wait
##led
taking
getting
minutes
lived
question
short
hold
standing
answer
less
master
certainly
appeared
green
returned
outside
cold
yourself
grew
either
paper
forward
arm
horse
hell
reason
saying
fellow
wouldn
wrong
itself
different
town
die
pulled
followed
dog
top
##ous
general
city
possible
sight
later
quickly
anyone
kill
instead
sleep
several
wall
rose
thank
doubt
caught
laughed
often
continued
eat
sometimes
hours
whatever
feeling
##ce
none
##ie
sister
ten
corner
died
##ive
land
ah
certain
afraid
become
play
single
strong
smiled
waiting
during
husband
captain
order
six
walk
stay
##g
book
breath
shook
doctor
whose
exactly
thousand
return
thus
lord
box
nearly
queen
##th
silence
thinking
##ch
food
means
stand
golden
##rs
line
glass
hardly
##ge
living
save
watch
late
##ling
running
actually
probably
step
truth
road
wood
humans
fast
whether
carried
thee
free
mine
glad
seem
twenty
bright
chance
seems
lips
war
lot
wind
change
isn
talking
third
##ian
start
soul
suppose
wild
garden
immediately
jo
##ping
guess
present
sky
comes
led
figure
stone
week
seven
threw
##ter
entered
doesn
cat
foot
watched
killed
shot
##ble
gentleman
seeing
##ine
letter
sit
stared
tears
filled
trees
bear
move
quiet
hadn
heavy
nice
deal
palace
sense
ones
showed
pocket
tom
creature
##ary
forest
##ped
school
attention
nodded
middle
pain
dragon
broken
meant
laid
straight
fall
##nt
moved
legs
manner
low
today
meet
jack
looks
skin
whale
wide
trouble
loved
shoulder
struck
number
piece
shut
wonder
##ish
closed
boys
easy
police
##ant
##is
beside
secret
mary
neck
age
bird
minute
cry
##u
beyond
instant
silver
raised
game
fingers
hall
needed
fight
toward
giant
##re
months
job
simply
stories
broke
form
magic
therefore
turning
early
nature
dinner
empty
##ate
yeah
##ent
##x
laugh
dropped
pass
forth
##c
drew
river
company
terrible
clothes
snow
##el
although
knows
flew
placed
##um
decided
surprise
covered
break
entire
drink
state
##ial
##it
alive
arrived
news
leaving
office
##b
car
safe
note
darkness
##id
ears
##ated
##ure
silent
fair
neither
hit
listen
holding
except
below
thy
walking
quick
nose
pay
##w
clock
okay
waited
hot
thoughts
noticed
tall
further
##ar
##ious
london
planet
simple
distance
interest
remained
thanks
lives
##ance
angry
phone
hole
sweet
guy
rich
whispered
chest
##ck
learned
lying
picked
seat
tired
makes
changed
warm
dr
##ty
laughing
wished
##ts
send
watching
account
crowd
follow
##0
heads
##age
teeth
liked
impossible
length
loud
##il
usual
heaven
nobody
ring
space
parents
added
imagine
surely
shit
fresh
expected
wonderful
com
reddit
steps
received
soft
staring
surprised
married
moon
lie
stepped
sudden
##ened
##te
carry
finger
remembered
boat
couple
onto
##ily
finished
women
spent
asleep
kitchen
beneath
ill
joy
evil
giving
hurt
##ra
knife
reading
brown
https
spot
dad
dressed
sighed
##se
##red
supposed
thin
mark
sherlock
##et
fuck
worth
##ded
birds
expression
sharp
x200b
reach
goes
walls
self
ye
field
visit
touch
##f
kid
sword
##ring
check
force
##nce
forget
shouted
besides
questions
castle
party
strength
##ding
notice
tiny
perfect
knowing
working
hat
telling
##os
shoulders
##ile
catch
happen
cause
hey
hung
important
##ical
##ned
pointed
rolled
sign
yellow
direction
dress
worked
entirely
flowers
weeks
pale
##dy
art
born
fish
stranger
beauty
promise
##ve
village
picture
easily
peace
miles
shadow
girls
hill
dream
thick
grass
throat
worse
peter
position
tail
view
carefully
gun
common
future
##ging
begin
coat
court
www
##am
##ged
burst
papers
##ist
##ur
conversation
forgotten
##land
learn
fairy
iron
pushed
brothers
companion
knowledge
quietly
st
following
purpose
bag
gods
suit
path
books
especially
fun
crying
haven
building
sad
faces
huge
edge
fly
escape
rushed
leaves
pieces
##ors
beginning
smoke
species
ear
noise
written
yours
afterwards
observed
rock
clearly
danger
discovered
character
luck
somehow
##cy
grow
##ue
lovely
amy
cross
doors
drive
message
wings
speaking
playing
law
managed
possibly
smiling
letters
##men
comments
history
likely
completely
bottom
glanced
memory
hero
pleasure
somewhere
lion
beat
slightly
write
expect
windows
curious
appearance
perfectly
sara
shoes
##der
stick
fallen
##ions
devil
eight
journey
##ible
bread
situation
object
##sh
moments
##ny
de
english
allowed
sounds
drawn
music
island
jumped
colonel
fucking
##tion
desk
pleased
public
scene
blow
stuff
trust
fancy
moving
writing
baby
explain
##ities
spread
ought
effect
grown
problem
pull
stupid
tone
brain
mountain
##ton
presence
growing
machine
##ating
plan
train
##king
pair
wine
##ne
spring
breakfast
played
powers
##ual
act
morrow
meg
beast
creatures
system
crime
listened
forced
##ied
dorothy
putting
##ad
lead
natural
welcome
clean
touched
drop
animals
gray
coffee
pleasant
understood
absolutely
demon
gate
animal
apparently
class
elinor
twice
familiar
wolf
##fully
##ps
hungry
leaned
barely
forever
key
marry
bank
lose
mere
busy
realized
dare
maiden
talked
stairs
paid
surface
thirty
exclaimed
forehead
youth
james
pick
control
lamp
frightened
ended
george
mom
##ally
month
screen
lad
fate
fit
greatest
rat
wicked
north
horror
song
subject
difficult
##ley
station
twelve
##ence
afternoon
aware
shaking
spirit
angel
battle
drove
fox
glance
metal
particular
em
gentlemen
ha
remarked
ordered
presently
screamed
truly
damn
serious
summer
unless
wore
##ey
aunt
knees
##way
bell
plain
reply
rooms
##per
caused
mad
throw
determined
lights
leg
stars
calm
dying
ourselves
uncle
built
pray
chapter
considered
guard
sprang
usually
##ably
complete
hidden
paused
buy
eventually
study
bar
anger
sake
broad
sick
##ized
church
thrown
everybody
lifted
mouse
smith
fortune
ways
latter
closer
england
grey
hide
passing
edit
maid
proud
settled
tongue
anyway
kingdom
desire
final
occurred
takes
##ut
carriage
fifty
odd
bound
group
humanity
servant
wise
burning
handed
information
terror
##ee
##ft
finding
nine
seconds
yesterday
experience
remarkable
laurie
##ier
board
powerful
prepared
##ard
points
wrote
##as
ate
disappeared
smell
instantly
##ice
confused
dangerous
funny
locked
promised
##med
repeated
##na
advice
believed
dreadful
forgot
helped
necessary
winter
excellent
laughter
attempt
dry
yard
falling
##rated
harm
interesting
pressed
##ments
weak
saved
service
gets
rain
slow
enemy
spite
##by
roof
witch
cap
fool
approached
hate
merely
##ified
consider
energy
explained
murder
search
size
remain
appear
calling
gently
places
cave
horses
milk
##at
ain
##la
alien
grabbed
meeting
offer
stuck
chamber
drawing
sounded
##uring
dance
draw
guys
opinion
worst
##tic
rising
monster
streets
flying
marianne
marriage
##3
##z
dust
ice
servants
grave
handsome
ancient
race
soldier
tea
private
slept
special
asking
##7
chief
joke
language
mistake
##ow
offered
somewhat
count
stretched
wedding
turns
##rate
crew
lit
wondered
wooden
##ening
ball
slipped
cast
failed
keeping
tied
anxious
bones
older
shock
society
existence
gathered
lies
stayed
evidence
##ked
begged
pinocchio
inspector
lestrade
west
eating
opening
##2
enjoy
hearing
prison
grand
south
spoken
weren
facts
fixed
universe
wearing
beth
lines
share
##ir
brave
square
anymore
duty
seized
voices
##ched
allow
directly
excitement
post
test
worry
wants
cottage
enjoyed
seated
sigh
weight
##ll
agreed
cool
difficulty
evidently
rise
starting
##9
##ke
aside
wake
##ds
aren
march
nurse
##ess
##ite
choice
shining
##sing
named
normal
screaming
##ning
events
gaze
judge
toad
weapon
weird
professor
taste
bow
cover
shape
cook
due
passage
thousands
##de
greater
ships
uh
##lt
bedroom
page
##ct
effort
ladies
shore
sisters
excuse
royal
softly
ass
clouds
##ls
##my
cheeks
ahab
hanging
##les
##ns
attack
gentle
kids
paul
respect
honest
mighty
##iness
action
shop
##ide
curiosity
excited
##ries
fat
otherwise
star
##1
command
meaning
proper
ahead
features
hurried
pure
satisfied
alright
apartment
fashion
lower
##ward
##ations
##ress
circle
farther
affair
level
main
##ered
hans
listening
supper
##ro
continue
dozen
rage
##un
date
enter
matters
names
bottle
meat
rough
christmas
cup
lonely
altogether
american
charles
glasses
careful
obliged
shown
worn
##ving
##ill
muttered
quarter
using
aglaya
bill
boots
circumstances
opposite
pity
sooner
houses
##pt
##tered
admit
army
prove
buried
fully
##ins
burned
carrying
clever
obvious
throne
happiness
##up
eaten
interested
mystery
personal
shrugged
vain
tomorrow
whenever
##ha
beg
blind
vast
##ss
contact
harry
report
speed
hurry
weather
##board
##ition
everywhere
higher
jason
pipe
scared
##5
##ise
beard
formed
scarcely
spend
wizard
headed
michael
missed
singular
woods
##im
crossed
hoped
precious
weapons
address
apart
jump
##son
adventure
comfortable
pulling
speech
wet
missing
plenty
cow
horrible
knocked
pride
reality
scream
##ah
loose
ordinary
unknown
particularly
##ner
treasure
color
rope
woke
shake
showing
soldiers
bent
cloud
fighting
forty
lake
opportunity
parts
sides
willing
begun
extraordinary
officer
shone
charge
condition
henry
innocent
travel
choose
bodies
bride
kissed
result
bought
distant
massive
shouldn
branches
##light
courage
east
fond
seek
bridge
happens
##4
knight
double
flower
spell
stones
##rt
##ze
awake
details
nervous
##ld
##ration
kindly
noble
##me
##op
fields
##bed
famous
heat
prisoner
slight
snapped
##ma
crazy
hundreds
lucky
breaking
crept
##uous
nearer
sarah
wondering
##ster
examined
handle
stage
th
##ham
cases
dogs
sing
accident
comfort
queer
shadows
shirt
signs
stream
vision
##bling
confusion
flesh
government
loss
refused
rule
naturally
wear
fault
grin
dragged
dreams
explanation
whisper
##ians
impression
ok
stare
##ively
former
hoping
stomach
occasion
##den
##ick
##ics
farmer
gift
##ber
##ery
indian
##bly
10
memories
mole
storm
various
##ism
##om
deck
french
spirits
##ver
task
##8
chin
gonna
gotten
nastasia
##ay
##ium
burn
delight
dull
engaged
madame
swear
ugly
unable
younger
##ot
amount
monkey
seriously
similar
strike
dollars
feelings
waved
pointing
##ks
cruel
rode
sleeping
visitor
alarm
edward
faster
health
response
silly
singing
yelled
##dle
button
faint
orders
park
##ory
##row
gazed
heavily
mirror
vanished
climbed
importance
pause
deeply
hast
hotel
served
splendid
wave
wishes
##ering
apple
hello
papa
sentence
##rd
favorite
greatly
souls
weary
dave
join
ride
throwing
##ons
happening
lock
match
needs
delighted
honor
hunting
realize
spare
##6
appears
flight
period
pig
assure
faded
larger
narrow
sang
slip
warning
bringing
satisfaction
team
track
cleared
client
confidence
leaning
president
rogojin
success
##ip
foolish
interrupted
original
peculiar
works
lorry
##py
card
surrounded
tight
##her
##line
alas
blew
lodge
merry
relief
##ured
flat
goose
knock
million
##zed
##ain
##ists
proved
cake
convinced
dancing
despite
friendly
honey
##ching
eh
escaped
suggested
taught
##ff
##v
despair
faced
##to
charming
example
feared
holy
raise
store
hearts
hunter
majesty
wound
ceiling
oil
pictures
rolling
win
gives
patient
removed
##ically
##iled
basket
driven
hospital
leading
mistress
mortal
ocean
tower
##ited
##tch
elder
mass
somebody
wendy
##tor
gania
hiding
awful
crown
hated
hid
lebedeff
meal
rang
rapidly
wrapped
daily
fail
fill
plans
vessel
bore
breast
tonight
confess
purple
torn
trembling
bowed
mountains
rules
sorrow
anybody
fifteen
finish
pink
pot
rocks
valley
bone
breathing
sons
america
grandfather
tiger
##ney
anywhere
joe
tailor
advanced
fetch
leader
roll
throughout
baker
figures
mentioned
merchant
sell
waves
cab
eager
image
marked
rate
boss
chain
delicate
local
snake
##ker
cheek
dirty
flames
##ug
000
according
blade
build
pounds
reward
tore
difference
eyed
moor
presented
##ford
definitely
dwarf
exact
stands
unusual
##room
##tive
avoid
fairly
kiss
remains
##ade
##em
##iest
##uck
emperor
flash
fought
grace
pool
rubbed
tear
brow
candle
entrance
landed
price
satan
unhappy
##gy
##ple
##ute
declared
imagined
killing
steel
##ship
hook
smart
aloud
center
correct
poured
setting
upstairs
absolute
guards
hollow
joined
lucy
ma
stronger
add
centre
generally
useful
bare
cloth
honour
robert
twisted
value
accept
beasts
frozen
mention
thrust
waste
##ew
##mon
frowned
swallowed
york
claim
cost
dared
darling
intended
justice
meanwhile
nights
sending
##ius
hunger
sam
birthday
observe
shoot
considerable
unfortunate
waters
##ibly
astonishment
fruit
hills
safety
swung
##hed
bite
capable
danced
hunt
notes
request
thomas
trap
counter
risk
row
villain
dirt
midnight
miserable
support
##lessly
extremely
manage
##ron
chosen
companions
fourth
jim
lightning
loudly
sweat
yards
##ger
ben
desperate
drunk
ease
feed
mostly
robin
chuckled
faithful
hopes
kindness
suffering
##ak
##ties
letting
prevent
shame
solid
teach
##tle
cloak
list
major
meantime
serve
staff
bade
beings
bye
colin
sand
eggs
obviously
push
scarecrow
thinks
trade
##our
acquaintance
driver
numbers
pen
sheep
sheet
thief
upper
violent
ashamed
blame
driving
height
heroes
pile
rare
tha
tossed
##ches
##cing
##ris
billy
criminal
earlier
inquired
leather
process
resolved
council
created
degree
limbs
possession
whoever
##bs
##go
grief
sank
sought
swiftly
##work
beer
camp
drinking
event
youngest
##sed
ability
awoke
false
previous
brilliant
ceased
concerned
grandmother
heavens
mercy
nbsp
destroyed
faith
reaching
terms
bitter
heels
pack
succeeded
wealth
##aked
couch
flame
forgive
mile
aliens
computer
ideas
##pe
##rating
approaching
branch
gasped
habit
lunch
nest
returning
rush
silk
treated
##house
aye
betty
bull
intelligence
jungle
marks
smooth
sorts
sunshine
understanding
college
mysterious
oak
straw
tale
armor
assured
trace
##bing
##mate
evident
louder
oz
tin
visible
##gle
##ings
chose
content
exceedingly
flashed
wept
##sion
##wood
band
colour
dim
hang
harder
idiot
midst
riding
##da
club
drank
eldest
happily
practice
recognized
shortly
connection
defarge
motion
recovered
##vation
becky
dickon
##nd
aid
beating
ends
firm
receive
temple
worried
##ren
armed
collar
destroy
figured
proceeded
##nted
##tes
bigger
plate
proof
astonished
becoming
bob
corpse
crack
floating
pockets
amazement
anxiety
demanded
gates
painful
terrified
trip
##sive
conclusion
cries
goat
host
influence
mankind
movement
pardon
pistol
rid
sail
scattered
united
fierce
security
suffered
medical
assumed
feathers
frank
glancing
regular
##ul
##ved
area
minds
sold
##ior
##owed
##ud
arose
axe
feels
occasionally
property
theory
worthy
##cies
bearing
cell
easier
folks
press
thunder
trick
approach
brief
calls
kicked
painted
physical
steady
type
violence
##lin
cracked
regard
seldom
##cked
blinked
bullet
equally
members
skull
closely
daughters
demons
expecting
nowhere
silently
states
swept
useless
##cks
base
gather
knee
mask
peaceful
thumb
##ina
capital
farm
literally
paris
startled
afford
beloved
daddy
fix
arranged
clue
deadly
##io
desert
fired
ghost
inn
losing
nonsense
sofa
victim
##kin
##well
affairs
arrival
glowing
immortal
mamma
rested
william
##cent
##ming
actual
cutting
detective
laying
military
record
suspicion
##che
device
foreign
hood
invisible
passion
series
shows
##ets
##ised
ashes
emotion
er
handkerchief
lighted
mess
peasant
unfortunately
##eer
##li
##ony
desired
feast
hi
patience
video
##ral
cabin
eagerly
enormous
flung
invited
lip
mice
mount
responded
shocked
technology
##izing
egg
genie
jacket
produced
pushing
temper
touching
wp
aged
cunning
gradually
marble
material
remaining
stable
valuable
waving
atmosphere
hare
panic
refuse
skill
tender
bet
discover
glimpse
grateful
guests
highly
honestly
johnny
possessed
stole
struggle
super
behold
carpet
deeper
fellows
gained
owner
roared
screams
source
string
breathe
centuries
fist
grinned
ho
nearby
persons
runs
##ball
apples
curse
member
secretary
slammed
##ants
##zing
advantage
begins
boats
cock
enemies
extra
extreme
likewise
orange
sadly
safely
shade
wrist
##rant
birth
chase
committed
dragons
eleven
mate
##ax
##ify
##ined
##va
checked
contrary
learning
murmured
nevertheless
wanting
##hip
##pressed
accepted
conduct
discovery
mud
nearest
palm
##ction
##ky
##ric
agent
cared
century
colored
disturbed
exist
genius
imagination
mission
remark
results
ruin
suffer
sunday
forms
frame
incident
intention
regret
witness
##ient
bench
cards
described
firmly
german
grip
increased
interview
slid
smiles
social
stolen
##pped
asks
dashwood
portion
required
troubled
utterly
click
crow
downstairs
echoed
science
smoking
style
##ool
camera
connected
decision
heap
market
minister
reasons
smaller
tommy
wiped
##bled
##rit
##ust
brains
dick
equal
fled
folk
millions
stern
stopping
sum
voyage
wandered
##gled
adventures
belonged
magnificent
precisely
steal
trunk
wherever
##ort
bold
credit
express
extended
log
magician
mistaken
perceive
##one
agree
bless
constant
lack
measure
plainly
protect
retired
##fied
##ished
##ize
##ound
amongst
arthur
damned
destruction
whales
##aking
##ens
##rier
##wn
coffin
describe
dropping
immense
informed
investigation
lest
lift
properly
struggled
survive
tells
thoroughly
##ig
##shed
amazing
footsteps
household
intense
jaw
picking
poison
rabbit
savage
##ri
announced
beach
cats
corn
fastened
games
guilty
huh
keen
threat
wilt
climb
perceived
pretend
shout
##ingly
dig
eagle
instance
stubb
student
absence
arrow
bowl
cage
dressing
fur
haste
mental
suspected
##oo
##ters
##uff
commander
considering
current
dumb
gay
official
settle
spun
um
vague
##let
##ried
##uted
##wed
bushes
senses
strangers
summoned
thanksgiving
##ast
##like
admitted
decide
dug
recognize
suggest
##aging
##and
##bles
##ome
bundle
contained
countenance
gas
goodness
hers
monday
queequeg
##ses
##time
##ulate
claws
dining
glow
horizon
loving
searching
snap
tightly
turkey
cursed
huck
nod
philipovna
provided
treat
wretched
##ative
##gin
##que
##ub
badly
folded
liberty
minchin
statement
tragedy
utter
wing
angels
cheerful
extent
fed
hut
jesus
keeps
ridiculous
tv
##ator
bunch
guide
individual
solution
sympathy
thanked
##tering
bloody
chairs
closing
jerry
##ail
##hood
##ote
amid
answers
efforts
gazing
granted
helping
inches
jeeves
roar
roses
shouting
##do
##ms
##zy
affection
glory
guns
hearted
martha
raising
repeat
signal
##nk
##pose
contents
dawn
depths
deserve
holes
replaced
sees
trembled
##ued
accustomed
burnt
doorway
furniture
lesson
lid
mike
planned
terribly
##ans
breeze
commanded
corridor
descended
floated
galaxy
lawn
scent
spinning
##als
##ulous
disease
dude
progress
sperm
teacher
assistance
focus
keys
manager
practical
shell
stained
##els
##iss
##vor
colia
dish
endless
mounted
reflection
##oon
attempted
colors
examination
frog
guessed
jennings
released
rushing
successful
unlike
washed
wheel
##mer
curled
dashed
disappointed
elephant
hesitated
jewels
lap
monsieur
recall
research
shelter
walks
wounded
##ishing
30
actions
addressed
drops
grasp
india
lots
officers
reminded
trial
willoughby
##fall
##iling
##ils
##ix
##vin
attached
cart
copy
modern
neighbor
slightest
wishing
wow
##all
##back
angrily
bark
beaten
drowned
fever
hannah
highest
native
pace
prompt
punishment
stumbled
suspect
undoubtedly
wash
crash
eyebrows
gain
hint
lands
lowered
miller
text
uncomfortable
bathroom
desperately
grab
likes
mischief
shattered
tales
uttered
writingprompts
##end
##res
##stone
##ular
acted
agony
coin
delightful
direct
froze
hasn
jane
leaf
pine
puzzled
##atic
fleet
freedom
grounds
hammer
nerves
revealed
shared
stock
tapped
data
falls
fountain
library
ruined
stove
struggling
unexpected
##ler
##ture
##ugh
##unk
##ution
chicken
description
evgenie
france
glared
gown
hastily
popular
victory
##lves
##ule
becomes
blank
block
coast
rude
yonder
##uming
##yard
abandoned
arrive
badger
brass
consciousness
forces
kinds
objects
pitcher
soup
thither
wisdom
##ane
##key
##right
apparent
cream
deer
exchange
existed
groaned
involved
lately
naked
pet
professional
random
sufficient
tie
##iously
##ire
##nie
backwards
beheld
bother
concern
departed
finds
grant
landing
occupied
relations
split
swallow
##antly
##rick
constantly
dread
fury
la
lane
tap
##aro
##ase
##ines
##istic
20
absurd
alarmed
aspect
career
cigarette
demand
earnest
hercules
murdered
radio
##itude
##master
##rim
##tain
hen
inquiry
madam
misery
sack
searched
trail
##00
##cle
##dling
##its
advance
concealed
conscious
craft
gesture
horn
inch
roads
secure
solemn
training
audience
comrade
emerged
engine
friendship
horns
kick
pages
possibility
sink
sunk
travelled
visited
##eus
##ification
##imate
bush
corners
delay
eternal
fence
frequently
mowgli
shalt
striking
winds
##ously
adam
breathed
deed
empire
entering
fro
immediate
pan
per
pillow
solitary
van
##lf
bits
blessed
disappointment
favor
fiery
mill
popped
problems
sailor
term
upset
##gling
##ison
##of
##some
##ta
belt
bosom
calmly
concluded
insisted
lined
manners
non
observation
penny
pretended
shed
##gs
##ng
crowded
cure
guest
hippolyte
impressed
introduced
jupiter
lightly
rubbing
salt
whence
##nes
absorbed
alice
changing
cigar
dreamed
elderly
greeted
prepare
rajah
resting
sugar
swing
##ray
##side
attacked
cars
duck
marionette
raven
ross
shooting
##ale
##mber
##pled
##ulated
afterward
awkward
brings
buildings
butter
mcmurdo
murderer
neat
pit
pond
pressing
relieved
reputation
stout
widow
##ature
##reed
clapped
deserted
design
drag
favour
lawyer
misfortune
sergeant
shield
subjects
title
##out
bargain
cellar
cities
dreaming
thread
underneath
##field
jones
prefer
season
secrets
spectacles
troubles
warmth
##acy
##lap
##lice
##mates
causing
covering
epanchin
failure
glare
loves
parted
strangely
##lation
acting
ages
chimney
largest
melancholy
mixed
plane
pole
seemingly
separate
swift
ya
##orted
bitterly
detail
fifth
flushed
fog
gloomy
growled
lazy
loaded
neighbors
owl
paying
quarters
shifted
sleeve
woodman
##rry
annoyed
article
belong
display
ending
eternity
mars
nervously
obtained
tobacco
travelling
##eration
##late
##lish
barrel
candles
crystal
delivered
doctors
fairies
partly
regarded
respectable
shaped
sunlight
supply
##ap
##cus
##ict
##tted
abroad
biggest
carton
charm
childhood
curtain
fashioned
habits
intelligent
mood
moonlight
pitch
remove
russian
stiff
tracks
warrior
##cial
##ination
##jected
##lee
##ore
##reak
##ume
##ware
blowing
deserved
directions
drawer
exercise
female
liquid
marie
mid
mist
needle
permission
plant
seeking
violently
##ab
##ake
##ced
##cer
##cious
##hy
##lock
##position
##rous
##usion
admiration
haired
hansel
ii
pandora
sensible
steadily
students
swam
##ees
##gan
##tled
##urance
##ven
average
british
clay
david
dried
envelope
ere
examine
finest
ours
resumed
revenge
starbuck
wasted
##iles
##oth
##udge
##ult
attend
completed
darted
feeble
fright
grandma
hallway
lantern
moral
noon
paint
priest
steve
utmost
wildly
##iting
##kes
##ump
amused
amusement
author
chill
clerk
code
create
distress
gang
lover
prime
stroke
volume
waking
weep
##co
##ria
coach
cousin
grim
idle
laws
tim
wheels
##rable
##uts
arrested
brush
cheese
custom
decades
departure
dignity
humble
knocking
map
presents
recently
seas
sixty
threatened
##dled
##ert
##oke
##sm
15
buddy
characters
clearing
devoted
numerous
parties
pressure
respond
robes
rosy
sailed
visitors
whip
##ach
##rine
changes
delicious
hastened
obey
prayer
realm
revolver
saturday
trained
winged
##ave
##he
##iable
##ka
##verse
assume
fake
ignored
inclined
outer
rapid
saving
stretch
tip
worlds
##bar
##eers
##old
bay
daylight
gloom
hideous
net
tails
tricks
##au
##ea
##int
##nder
##ough
##ridge
##za
den
experienced
flies
killer
offering
powder
reflected
##pies
##uing
china
directed
experiment
gifts
hatred
judgment
kings
lily
plunged
un
violet
##liest
##most
##ncy
##ves
alex
arrest
begging
brick
brows
chaos
leaped
resist
sensation
sin
swim
tables
total
traces
troops
whilst
##ag
##sy
##used
awe
central
diamond
distinct
earnestly
flowing
healthy
incredible
ozma
shaken
sits
starts
suggestion
suspicious
##ass
##pered
##uary
accompanied
accomplished
active
crimson
dishes
hearty
lizabetha
narrative
plants
positive
##art
##ken
##liness
##rn
##sman
##tt
captured
conscience
emotions
exhausted
expressed
families
fears
provide
saint
score
slave
tools
trusted
wandering
##day
##ville
bored
dost
error
fatal
gathering
heartily
hum
manette
occasional
proceed
readily
related
sacrifice
separated
spider
telegram
washington
##iance
##lled
##utter
attempts
butler
godfrey
gotta
hound
medicine
owe
peeped
poet
recent
richard
robe
signed
tearing
triumph
##gar
##ht
##ining
accidentally
collection
compared
consideration
estate
fancied
furnished
helpless
jumping
plot
polite
preparing
reasonable
shudder
widened
##lated
##nts
affected
coal
earn
employed
furious
intervals
mayor
overhead
packed
purse
selfish
shift
swimming
union
##be
##iz
##lings
##lor
##rily
cash
christ
duke
education
farewell
filling
flag
infinite
inquiries
ladder
marched
muscles
planets
prisoners
prokofievna
scratched
sharply
##lm
##more
##val
##vered
abruptly
appreciated
brandon
clutched
collapsed
darnay
feather
fists
gravity
magical
pizza
snatched
squirrel
##aved
##hs
##uit
babies
bears
boxes
crawled
giants
huntsman
insane
intend
praise
roots
swords
##ars
##eous
##long
##rice
##tained
##ulating
boring
clad
clenched
curtains
method
movements
newspaper
prize
remembering
shower
##iant
##ock
12
absent
anyhow
backward
beds
carved
catching
cheap
citizen
cupboard
discuss
flipped
gregson
ivory
jolly
load
nails
nephew
pequod
prey
quest
shoe
sole
##ato
##ents
##hing
ai
blessing
brightly
bus
distinctly
flask
gladly
humor
lasted
madness
messenger
neighborhood
nodding
overcome
presume
sheets
squire
staying
stir
tide
tones
trigger
unique
vengeance
venture
waist
##ability
##gate
##ows
##rance
##rupt
balloon
creation
creeping
damage
damp
fitted
flow
glorious
gratitude
hesitation
inner
lively
lungs
mast
normally
peep
reckon
sacred
sheer
sticking
sticks
target
teddy
tumbled
void
warned
##ads
##ats
##eral
alike
ceremony
copper
crushed
developed
exit
favourite
flashing
gardens
governor
nuts
practically
protection
quality
recover
release
sealed
spine
statue
##cast
##lay
##min
access
appreciate
background
belief
blown
blows
circumstance
cliff
conceal
fred
hopkins
knelt
longed
pavement
reader
spear
strode
subreddit
ticket
toto
uniform
##gen
##ought
##rk
anyways
challenge
chuckle
confirmed
continually
dearest
duties
immortality
partner
princes
probable
ringing
spy
swinging
von
##ages
##ana
##asis
##culated
##erate
##set
##wing
##yan
baron
clicked
consent
consequence
countries
dermat
gardener
harsh
helmet
instinct
seal
seventy
severe
shelf
stated
stirred
thoughtful
whispers
##are
##ces
##illing
##kle
##ol
apollo
appointment
beggar
cattle
communication
document
eighteen
freely
jury
martin
meadow
perform
reported
shapes
sub
succeed
surrounding
unpleasant
upward
##ancy
##ided
##iding
##ima
##nal
##orn
##ran
##smith
alley
civilization
drug
godmother
instructions
lessons
mortimer
population
principal
print
pursued
reference
seed
stuffed
sweep
swore
warn
weakness
wire
##ace
##ba
##mit
##rse
##shire
admiral
chariot
cinderella
convince
countless
donkey
facing
homes
jaws
lump
melted
porch
quit
rescue
rights
submit
suits
uneasy
yourselves
##ared
##erial
##press
##sted
##ures
apron
ash
based
boot
chap
claimed
counted
deny
grain
hudson
ignore
ink
longing
methods
planted
plastic
profound
speaker
spreading
survived
tasted
wolves
##aries
##j
##lo
##nse
##ten
##try
##uity
cheer
coins
compelled
focused
hind
holds
lean
lifting
naughty
produce
revealing
scotland
superior
trapped
unto
weeping
wrath
##iction
##ike
##ional
##nel
##oped
##ree
##tched
##tling
angle
backed
elevator
funeral
gleaming
hence
inhabitants
latest
model
mortals
mouths
pains
photograph
risen
soil
suited
unconscious
underground
whipped
##fer
##tory
100
divided
finn
grinning
heading
indians
joseph
leap
lee
nay
profession
project
pross
punch
rocky
simon
strongly
systems
##city
##eal
##gles
##ington
##lle
##rity
bleeding
counsel
disgust
dusty
emerald
june
lo
messages
monkeys
mothers
motionless
painting
pretending
scientist
solar
stepping
threatening
veins
wonders
##ene
##rey
##umble
attitude
balance
banks
bewildered
disappear
doll
fearful
grandpa
hissed
identity
knights
mug
nation
observing
possess
sobbing
spotted
standard
truck
##aded
##aving
##coming
##igh
##lect
##ok
##zel
alert
burden
collected
composed
drifted
fishing
hopped
issue
keeper
limited
pavlovitch
remind
secured
services
skeleton
spat
torture
vampire
velvet
warriors
##fe
##fted
##ges
##writes
agitation
anxiously
authority
bars
chains
charged
coloured
consented
daniel
deliver
effects
grasped
impatiently
internet
paw
plus
quarrel
rear
stretching
toes
##od
##ph
blast
closet
county
crab
entry
gloves
monsters
newly
responsible
scarlet
sinister
stair
sunset
winding
##ased
##cid
##inent
##pping
attracted
circles
digging
dollar
dripping
forgetting
foul
guilt
handful
hired
movie
necessity
ragged
remarks
remote
sleepy
speaks
sufficiently
tis
upwards
##hole
##igned
##oted
##rain
##tan
artist
autumn
canst
chat
clothing
confident
criticism
deeds
degrees
gigantic
hurriedly
intimate
mail
neighbours
port
prayers
scythe
staircase
##fire
##linging
##port
##ught
attended
concrete
dan
enjoying
europe
hush
illness
injury
intently
jealous
matt
minor
mumbled
ozana
receiving
routine
scratch
shine
sinking
songs
squeezed
studied
wand
##bit
##low
##olation
##posed
##rained
##ude
50
bags
bang
belly
crossing
ermengarde
expedition
furiously
lofty
moss
nursery
oldest
peered
printed
range
reduced
robbers
upright
##cence
##eds
##ids
##oil
##pse
##rel
##rise
agreeable
claus
contract
elbow
fires
friday
glances
gripped
herd
instrument
legal
link
pencil
portal
rarely
rings
ripped
tough
toys
twist
whispering
##ack
##ath
##book
##ived
##lied
##riving
##ternal
##uded
amazed
complex
difficulties
disappearance
emily
exposed
impatient
injured
landlord
minded
perseus
plates
pop
rattled
reports
rifle
shouts
strongest
veil
wars
wrinkled
##ntly
##ram
##ursing
##use
##worthy
accounts
awakened
comment
curiously
diamonds
divine
dozens
edges
paws
personally
portrait
rats
records
traveled
traveller
willingly
##can
##ception
##inal
##ips
##nting
##tte
##uting
##vo
bath
benefit
bitch
complain
comprehend
conviction
douglas
epimetheus
ka
lamb
learnt
lifetime
machines
mild
murmur
noises
nuclear
obeyed
passes
pattern
sailing
thoughtfully
tucked
vizier
wander
wit
##ament
##ash
##ency
##len
##quent
##ying
11
advertisement
agitated
arrows
bells
horrid
pouring
require
scientists
sparrow
subtle
##gation
##icted
##reaking
##sity
argument
barn
bid
bottles
cares
co
dragging
examining
exchanged
follows
frost
geese
knot
leaders
lucifer
mixture
opens
political
puts
realised
scobell
stops
suspicions
wipe
##cap
##cript
##eon
##ib
##ibility
##ncing
##ose
##ovitch
##shing
##uled
ascended
assembled
bees
climbing
collect
defeat
defense
dove
elephants
established
frown
goodbye
iii
leapt
patch
peering
polished
retreat
roaring
sailors
smallest
sore
steam
strain
tuesday
whistle
##ators
##cope
##ggy
##itch
##lon
##mes
##no
##ora
##rump
##une
blanket
brighter
buttons
christian
cough
dense
essential
fantastic
fortunate
invitation
leads
league
location
nightmare
planning
reveal
root
sized
slender
totally
##bid
##culation
##eg
##ja
##uation
##unt
##verted
##ws
accordingly
adopted
bastard
bridegroom
eyebrow
fisherman
forming
impatience
lucie
mistakes
packet
pound
rays
relationship
restless
seventh
stealing
wilson
yell
yelling
##ager
##iated
##ites
##oking
##venience
##vour
balls
blonde
boiling
briefly
bullets
charlie
cooked
crooked
elsewhere
flock
grows
hearth
intent
jeremy
moves
ms
sadness
suicide
thankful
tsar
twilight
wives
woe
##course
##fy
##gged
##ials
##ices
##ience
##lit
##tles
##uated
##ulations
agreement
articles
artificial
cakes
comrades
cooking
designed
drinks
earned
frock
halfway
masters
noted
patted
prayed
prevented
princesses
proposed
pursuit
resources
scientific
sentiment
skies
spots
stammered
studying
substance
traveling
treatment
vessels
whither
##ac
##bury
##dly
##gue
##kins
##off
##posing
##vision
##wich
annoyance
breaths
cautiously
celebrated
cheerfully
choked
conditions
cotton
counting
distinguished
eustace
hopeless
hunters
images
increase
interior
jake
lets
quantity
rows
solemnly
staggered
tribe
writer
##act
##bby
##etic
##nant
##rum
##ux
attempting
bat
beautifully
chased
checking
citizens
file
garments
introduce
italian
nations
nostrils
obtain
prophecy
reaction
rob
rocket
version
##ara
##berry
##icle
##nation
##oop
##tors
##uds
##umped
##vious
allowing
awhile
bee
blaze
brand
clasped
costume
definite
destiny
generous
inevitable
jacob
karen
limits
notion
pearls
pirates
poverty
section
shiver
teeny
theirs
tortoise
university
workers
##ga
##hes
##hop
##iful
##ising
##rid
##table
##uffed
##yle
butterfly
cancer
cease
clung
coughed
creep
deepest
gestured
heir
hither
jarvis
noticing
novel
performed
persuaded
politely
queens
rent
shrill
spark
spells
strings
tune
##aire
##corn
##dies
##eak
##imated
##ology
##ories
##sided
basement
cleaning
combat
community
confessed
gleam
glowed
gravely
polly
riches
shy
spin
threshold
tops
warmly
wiser
##fined
##gon
##inated
##maid
##rand
##rge
##rian
##ually
##vna
barked
betrayed
brushed
consequences
courtyard
dramatic
emergency
enchanted
engagement
exciting
foam
harvest
hedge
ignoring
khan
locks
monstrous
moreover
motive
prank
ralph
rank
scandal
shepherd
sober
spit
sprung
switch
thyself
tossing
##ander
##cted
##lity
##ook
##take
accused
afterlife
aloft
attic
beam
cord
cows
crimes
disbelief
disguise
genuine
greek
hay
hitherto
ivan
jackal
kettle
kicking
maidens
perched
pie
pin
placing
satisfy
scrambled
stan
talent
treasures
wallet
washing
wheat
whiskers
worm
##ii
##ility
##ith
##ove
advised
expensive
hunted
kinda
laughs
medlock
player
promptly
religious
sultan
##angled
##arily
##mi
##mm
##night
##ork
##quet
##spiration
##tation
agents
borne
capture
cavern
chanced
considerably
doom
expense
flood
flowed
forbidden
fortunately
frequent
goddess
grethel
haunted
ignorant
interests
labor
lions
male
parlor
pathetic
questioning
slapped
soothing
summit
unnatural
##ates
##ciation
##ifying
##iring
##oid
##ounce
##ret
##ser
##vent
concerning
contain
crawling
currently
dimly
etc
flicked
glittering
guardian
hug
metallic
mister
muffled
muishkin
passenger
raja
theseus
##cated
##ders
##dication
##haw
##ially
##loat
##pers
##rive
##ruption
##tches
##usk
abilities
accent
alongside
awaiting
bolt
bullshit
careless
channel
civil
coincidence
dudley
explosion
followers
graceful
hopefully
including
lame
miracle
monitor
occasions
offended
option
owned
react
resistance
ruler
sally
seats
southern
stately
taller
thor
##ai
##bie
##ending
##iff
##lapping
##lies
##mise
##quently
##tasy
##tein
acquainted
belongs
berries
blazing
cadmus
charity
chinese
claw
development
errand
ferrars
frankly
generation
hedgehog
insult
national
neighbourhood
prospect
regarding
region
restored
stool
tapping
traced
tries
trifle
trousers
uncertain
ventured
##cs
##ently
##iel
##inate
##itted
##rging
##rin
aboard
applied
asshole
assistant
babe
bagheera
bend
billion
bug
column
dat
eve
fools
fulfilled
gasp
kyle
limb
midas
muscle
panting
patiently
plays
racing
regardless
scales
scott
toy
universal
wealthy
##acity
##die
##prehension
##rage
##udged
##uously
13
admired
appointed
avoided
believing
boom
communicate
contented
defeated
exception
incredibly
originally
palms
pierced
scheme
seize
sliding
spanish
variety
##eas
##mity
##oning
##oy
##q
##rived
##uce
##ucks
##udging
##und
admire
ants
arts
ashore
bearded
behaved
brook
cape
deceived
decent
distracted
dreadfully
editor
eric
fading
fetched
goods
knives
phrase
plains
preferred
rattle
recognised
recollection
religion
rendered
rotten
scare
shoved
shuddered
summon
traveler
unlocked
wounds
##aw
##ners
##piece
##rap
##rink
##rove
##tone
##uffs
##zzled
advise
bows
camel
cleaned
crawl
disposition
embraced
jimmy
luckily
marquis
mason
particulars
pounding
pour
quivering
rejoiced
resolution
robot
roughly
supposing
surroundings
thereupon
tilted
tremble
twin
unnecessary
whaling
##con
##duced
##eth
##inger
##pted
##rot
##town
##vitch
armchair
awaited
blackness
chasing
dwarfs
fame
folly
pants
posted
potential
proudly
ray
reasoning
recalled
shrieked
slide
smells
stricken
tunnel
##duce
##eel
##gage
##icking
##irl
##keeper
##lar
##latter
##quest
##rison
##ther
##tions
##took
activity
answering
arrangements
cane
craven
galactic
groan
heel
hugged
ignorance
lighting
origin
pulse
referred
rivers
spending
surprising
tend
tremendous
victims
wagon
whistled
wits
##bage
##craft
##des
##dler
##eed
##illa
##taining
##ues
##ula
casting
colony
debt
dwelt
effective
elizabeth
fan
goddamn
gracious
jokes
lamps
lone
muttering
nigh
occur
oven
permitted
pitched
rice
scratching
serpent
shots
sickness
sip
sixteen
slippers
snakes
sounding
spectacle
spoiled
steep
unseen
villains
wax
##bble
##dging
##ean
##gie
##lly
##nor
##ocks
##orm
##riff
##unched
##urf
##ustrious
18
adorned
analysis
bon
coachman
criminals
cruncher
depend
district
gerda
lab
lend
limit
nail
neatly
ogre
payment
pearl
plucked
ram
ropes
smoked
sweeping
thirst
thirteen
wilderness
wiping
##bal
##fusing
##hos
##iate
##ique
##laring
##pence
aim
apply
assist
bald
blink
blinking
cocked
comforted
dagger
declare
dennis
destined
dresses
dwelling
embrace
feeding
hawk
invite
kneeling
lads
launch
performance
principle
pumpkin
realizing
site
slain
smashed
solve
stake
stooped
##ald
##atory
##eur
##iers
##lating
##nerable
##oes
##roy
##rred
##sters
##uding
##umbling
##ury
adding
admirable
attacks
chances
closest
comfortably
cute
defend
doubts
dwell
electric
fiercely
ghastly
hitting
jar
landscape
meals
movies
rags
robber
roubles
rounded
shiny
spared
spilled
stirring
strained
tent
tongues
wink
##cles
##een
##gular
##ime
##lack
##licted
##pling
##urn
##wned
apologize
april
backs
bills
brandy
chorus
comb
composure
crouched
dearly
decade
encounter
establishment
gossip
grabbing
humour
jail
mix
northern
palmer
piled
plague
plaster
reaper
remarkably
scale
sobbed
thieves
tragic
##ading
##ena
##hal
##iation
##lving
##nding
##nies
##pan
##raph
##robe
##uate
##ughter
##ulation
##urned
addressing
africa
boldly
bury
coarse
complained
culture
darker
department
discussion
eastern
gallery
guarded
housekeeper
kate
multiple
onward
operation
permit
precise
preparations
pronounced
races
scary
sideways
tenderly
theories
towers
trash
ugh
urged
##bility
##hered
##ign
##lement
##og
##over
##owing
##roving
##rus
##vant
behaviour
blossom
crop
crumpled
descend
encountered
failing
greedy
inform
invented
linen
moo
nasty
platform
ruins
secretly
seeming
shark
skip
sport
squeeze
surrender
tumbling
vaguely
virtue
zero
##aned
##aring
##born
##itor
##lick
##mission
##ples
##raction
##rence
##smen
##standing
##tter
##vable
artagnan
august
basic
baskerville
behavior
boar
bothered
broom
christopher
combined
convenient
core
cycle
dash
deaths
drum
fainted
fitting
flickered
formidable
grumbled
happier
johnson
lied
nag
odds
paced
previously
primitive
pudding
raw
relative
route
rusty
stables
stunned
supreme
##cking
##cts
##eered
##ounced
##ssed
##tel
##tire
##uits
##uries
##zzy
amuse
aroused
certainty
clutching
creating
dies
endure
forwards
girlfriend
helps
improve
iv
lance
lighter
matches
pots
promises
purposes
relation
resemblance
revolution
robbery
sails
scanned
shuffled
slipping
trailed
##cher
##couraged
##cute
##erry
##hand
##head
##lands
##lum
##motion
##omy
##ption
##racing
##ringe
##url
aimed
anchor
annoying
bellerophon
bolted
brian
candy
chickens
condemned
consumed
containing
deceased
devices
devoured
dismay
distinguish
experiences
fir
flint
horribly
hovering
impact
laurence
margaret
mercury
oath
objection
paces
quicksilver
reaches
reign
represented
requested
restaurant
rival
rucastle
seeds
shorter
skills
stryver
sunny
talks
weatherstaff
##aced
##bot
##ipped
##itated
##ivable
##rp
##uch
##ucking
##urs
##vity
behave
belonging
chess
classes
daring
echo
forests
gale
gleamed
goal
natured
necklace
outstretched
passionate
rigid
scarce
seventeen
sleeves
traffic
troll
visiting
vivid
western
winning
wonderfully
##aver
##aves
##down
##fter
##gus
##itive
##lets
##lling
##mp
##non
##tract
##ttering
alan
bicycle
contrast
decidedly
doomed
elegant
equipment
fare
giggled
grove
indicated
monseigneur
mycroft
needn
paths
piercing
pilot
pleaded
positively
procession
robbed
sex
sixth
sorrowful
sparkling
spoon
suspended
sworn
tank
terrifying
thump
ulysses
wrists
writes
##ams
##andra
##bel
##fare
##fect
##fore
##iny
##ira
##itation
##lic
##ller
##ong
##ops
##rific
##sight
##thing
avenue
bravely
cabinet
confined
contempt
crashed
descent
effie
enthusiasm
fortnight
harmless
holder
income
jeff
jobs
kevin
limp
mccarthy
program
pulls
ripe
screw
sniffed
sucked
thine
tool
tray
twisting
waistcoat
wanna
winked
##acle
##air
##ell
##fold
##nked
##oe
##phone
##ribute
##ributed
##rong
##tly
##writing
25
affectionate
apology
assault
calf
constable
curling
domestic
faintly
fits
fore
frogs
indignation
jackson
offices
owing
pete
residence
roused
smelled
totski
vacation
withered
##ama
##bable
##case
##ex
##fit
##founded
##imed
##inous
##lored
##matic
##orse
##pet
##phere
##roducing
##rumbling
##sa
##uction
##uished
aladdin
appeal
appearing
arrangement
border
buying
cells
ceres
crap
destination
doubted
fragments
frantic
ghosts
halls
hop
huddled
hull
inquire
judged
lieutenant
pacific
paradise
parting
peril
rascal
saddle
selling
shivering
shrug
skipped
snapping
wrought
##bers
##burg
##cia
##erated
##erby
##hips
##ittens
##ivated
##nia
##ode
##pit
##quiring
##reaks
##reet
##sis
##ural
##vouring
blushed
bonnet
bowing
brooke
canvas
chris
customer
dame
darkened
dealing
feature
fold
forcing
frustration
generations
groups
horrified
hurrying
insist
lovers
math
narrowed
pigs
pip
prior
rikki
rum
slumber
sternly
tablet
wig
##cal
##cess
##iah
##iary
##lous
##lton
##nge
##nis
##rieve
##risk
##uel
##worth
16
altar
bachelor
crisp
customers
daisy
determine
dismal
escort
ex
fade
fearing
fluttered
gap
issued
legend
legged
mates
nerve
pacing
pills
pipes
pirate
policeman
pupils
purchase
quicker
raced
rome
satisfactory
solitude
specimen
swans
wondrous
yo
##agged
##fulness
##hen
##icious
##itions
##live
##lusion
##nch
##nut
##ovna
##rapped
##rust
##wig
altered
amusing
bending
blinding
boiled
carpenter
confession
console
crush
disagreeable
dismissed
disturb
dungeon
execution
homeless
louis
middleton
nods
rolls
smirk
sydney
temples
toe
toilet
tooth
twins
visits
##aged
##hall
##iving
##lent
##lers
##logical
##oms
##rds
##sk
##ssing
ambassador
amiable
brute
catherine
cops
coward
crisis
drunken
echoing
enabled
excitedly
explore
exquisite
fleece
fourteen
grade
hoarse
howling
individuals
instinctively
jessie
logs
machinery
ox
passengers
patients
probability
propose
puff
rabbits
severely
shabby
solved
starving
succession
thirsty
tomb
trivial
victor
##aning
##bert
##cate
##cel
##cuted
##ect
##erson
##ival
##lena
##lined
##lint
##rations
##ulsive
addition
beak
blocks
butcher
cheered
chocolate
coningsby
cuts
depends
disgrace
drained
draught
eighty
fakir
ferrier
frantically
frightful
greece
intellect
intentions
leisure
mode
nut
perplexed
persuade
recorded
relaxed
roman
shakes
sob
specific
stares
television
unsure
varia
web
##cribe
##gister
##ki
##mee
##och
##pied
##pson
##ques
##rio
##ston
##unny
##uttered
##vy
##yn
17
alcohol
alternative
ancestors
bible
capacity
carl
conducted
continuing
coughing
depth
displayed
disposed
drifting
elaborate
expert
exploded
frighten
highness
impressive
impulse
increasing
invasion
jet
joint
joking
lens
merrily
mines
needles
pegasus
politics
seizing
streaming
stress
tech
tikki
travels
tut
##break
##cca
##iment
##lea
##ledge
##otic
##rl
##tie
##urge
##uss
##vated
##wl
alliance
barking
barren
bidding
bin
bulls
campaign
confirm
conflict
crocodile
dates
ditch
envy
fishes
fruits
geppetto
highway
holiday
hovered
illuminated
lifeless
maintain
nicely
peasants
preserved
promising
protest
ra
relax
resembled
roast
romantic
strolled
structure
tentacles
tub
##closed
##ek
##hew
##lace
##lding
##loth
##macy
##mouth
##ond
##plies
##volved
##word
andrew
arise
available
bitten
chambers
chewing
convey
dipped
feedback
gorgeous
included
july
knitting
laura
measured
oddly
operations
parrot
poked
pony
preserve
remembrance
ribs
santa
strikes
suggestive
supplies
symptoms
taffy
thursday
token
vehicle
witnessed
##ait
##ang
##avy
##bow
##ceptible
##cture
##form
##hart
##minated
##narled
##pect
##petition
##rowed
##rung
##uffle
##uke
##ung
##vis
ant
attendants
baloo
barton
blades
breaks
bucket
clumsy
conquer
doubtless
employment
erect
fanny
formerly
freed
humming
imaginary
issues
licked
loki
majnun
media
neighboring
overwhelmed
plump
poisoned
proceedings
punish
punished
rachel
realization
returns
rocking
russia
shriek
stabbed
stillness
technically
tended
thankfully
timid
torch
views
wholly
##clude
##erving
##hh
##iper
##ipping
##iscretion
##ogical
##ooped
##paration
##read
##ruce
##rude
##ulky
##van
##vert
##vors
adjusted
butt
childish
cracking
curls
delicacy
donald
downward
dreary
engage
ensure
exists
expectation
facility
finishing
halt
hog
islands
items
jonathan
leaping
mantle
mingled
mon
musical
nap
nicholas
nope
onwards
outward
passages
poetry
porter
questioned
refuge
rub
sensitive
shivered
shotgun
sobs
stray
susan
thrill
umbrella
weighed
witnesses
wreck
xcessivewriting
##ache
##ead
##eat
##ese
##finger
##gne
##icky
##lete
##lights
##nic
##oving
##race
##scribing
##sure
##urity
appetite
awesome
bacon
beamed
burdovsky
bureau
causes
chemical
curly
deirdre
determination
director
electricity
ferguson
foe
frail
garret
gordon
hangs
headache
interval
knuckles
lark
mattered
motioned
mummy
mustn
network
nick
nowadays
online
openly
parker
praying
qualities
reserved
respects
retained
richer
sale
settling
shifting
slumped
snail
strip
supported
surprisingly
teaching
todd
vacant
vile
worship
##acre
##bbled
##bered
##dicate
##ette
##gies
##guing
##icating
##lara
##llow
##nas
##oral
##rawled
##rva
##scription
##shes
##tom
##ulk
##ulously
##uns
##urt
aaron
americans
argued
bedside
bennett
compassion
conveyed
cub
desolate
ferdishenko
guided
hanged
hath
keenly
kidnapped
leviathan
mansion
mourning
napoleon
negro
neighbour
overwhelming
potter
proserpina
published
responsibility
ritual
rod
rustling
seals
select
shutters
slamming
slaves
supplied
thud
tips
towel
troop
unit
venus
watches
zone
##aming
##asing
##ca
##cation
##cessarily
##cis
##ented
##ep
##ez
##gance
##gers
##ilities
##ital
##lements
##lerable
##lla
##ooping
##tar
##ui
##utable
##zle
22
acknowledge
alighted
arrange
awkwardly
basically
bodily
coats
courtesy
dainty
edmund
faithfully
fireplace
fucked
grasping
grunted
gulped
heavenly
intending
invariably
lecture
ledge
loaf
mum
neglected
perfection
pod
raging
republic
respected
restore
ribbon
rug
scissors
spray
squinted
stump
tastes
topic
unlikely
vault
##fallen
##ference
##gram
##hire
##liver
##nob
##ou
##quence
##rably
##rait
##ratic
##rave
##rimmed
##ruct
##soever
##uling
24
anguish
appropriate
assigned
barker
beckoned
bronze
burns
bust
combination
complicated
devils
fork
gabriel
gingerbread
heavier
lime
mcginty
mob
opponent
pat
recommend
richest
roger
role
ruby
secrecy
sly
stapleton
stockings
tame
tellson
wretch
##actic
##ailing
##akable
##atically
##culations
##dex
##eering
##erence
##las
##mination
##olve
##rading
##rah
##site
##stic
##uth
##win
##wling
abandon
adapted
alpha
beetle
biting
blinds
bunker
choking
critical
dawned
deacon
drown
engineer
entertainment
exclamation
flounder
grania
greet
identical
independent
initial
intensity
japan
jelly
moriarty
multitude
mutual
rattling
representative
scrap
snorted
stains
tempered
##aly
##eem
##eled
##ggling
##ico
##irling
##lax
##lting
##nate
##olar
##oran
##pire
##rying
##tent
accurate
applause
arch
argue
asteroid
blossoms
bomb
bork
breadth
buller
bursting
commenced
constructive
consult
covers
crashing
curved
deemed
denied
drones
eagerness
earthly
echoes
embarrassed
endeavoured
eyeing
fiend
fort
freeze
glaring
greeting
hailed
handing
hardened
harpoon
heaps
hitler
hurts
improved
jest
jewel
languages
le
lilies
madman
mechanical
package
podington
poem
pre
ptitsin
rises
rogue
romance
ruled
sharing
sidewalk
simpleton
simplicity
slowed
smirked
survival
terrace
uses
##abouts
##acious
##bus
##car
##cker
##eb
##ella
##icipated
##itan
##latypus
##olute
##onable
##power
##ritable
##rod
##tachment
##urly
##world
##zzling
afforded
agency
armour
audible
bathed
blur
buzz
buzzing
continent
corpses
darting
dolls
dusk
erin
explaining
expressions
flip
foundation
gaunt
glinda
gretel
impressions
invention
jenny
outline
pigeon
profit
reproach
retain
scraps
scribbled
sins
speedily
swirling
thicket
tube
vital
wages
yield
##agonist
##ailed
##angle
##athed
##bi
##ceiving
##cribed
##duction
##fed
##ias
##itter
##lam
##mic
##niff
##nounce
##oly
##pie
##rat
##rosity
##round
##rray
##tery
##tious
##tructed
##uct
##unction
##wa
##wan
assassin
beans
boil
brutal
chateau
commonplace
conceive
conquered
continues
cycles
everyday
fiddle
flooded
fuel
gaining
grotesque
halloa
handled
hue
indifferent
options
overcoat
owed
petty
pillars
pluto
potatoes
proclaimed
realise
regretted
scolded
slim
stain
stamped
steed
stooping
swarm
vexed
wider
wires
##aeus
##asting
##ege
##ense
##gi
##gible
##hurst
##imulation
##just
##lessness
##mented
##oker
##pting
##raged
##resent
##sey
##thy
##tics
##ua
##unged
##ya
abode
amelia
anna
atop
avoiding
blocked
canoe
clapping
clearer
coldly
consisted
cracks
dangling
detected
disaster
dolly
elbows
employ
employer
engines
enjoyment
extending
fangs
flickering
flush
hesitate
inspired
interfere
lace
landlady
latin
lizard
lodgings
masses
mimics
mocking
modest
notebook
obscure
october
peeping
petersburg
pose
rewarded
scoffed
seamen
sighing
softened
starved
successfully
sweetheart
testing
towns
unwilling
urge
whatsoever
whistling
worker
yielded
##atus
##cinating
##come
##cp
##dad
##far
##iating
##ifications
##inished
##istics
##lass
##lier
##lip
##nable
##perity
##reated
##rils
##rouse
##sle
##tching
##udio
##vored
##yed
##ys
accompany
adrenaline
attractive
carries
caution
commission
commit
comparison
conference
curve
deaf
depression
drugs
fabric
flaming
fluttering
frowning
fuss
gallant
grieved
hairs
hark
harold
howl
icy
identify
jealousy
jessica
logical
mantelpiece
nantucket
offence
parlour
perpetual
philosophy
premises
railway
recollect
sausage
shops
statues
superhero
surgeon
tread
treaty
twinkling
twitching
unusually
villages
warrant
whirled
williams
winced
withdrew
zombie
##hic
##hony
##iana
##ica
##ight
##ikin
##itched
##lobe
##mark
##mies
##mmon
##ogle
##ologies
##olved
##oot
##rator
##rinkles
##rish
##taken
##tal
##tically
##ugged
##uin
##umbled
##velop
##yal
##zer
##zily
accord
acquired
acts
ambition
anticipation
ay
backpack
bridle
cannon
cherry
contrived
coronet
crows
desperation
distressed
documents
embarrassment
enchantment
eyelids
forgiveness
gifted
hail
heal
hospitality
hurled
inhabited
invalid
keller
maids
maker
management
mule
necks
occupation
reluctantly
removing
repair
riddle
screwed
sets
shere
sour
splash
strict
transparent
travelers
trusty
typical
videos
##ackle
##dam
##ection
##igorous
##iking
##ipe
##itating
##lls
##looked
##luck
##neer
##point
##rce
##rent
##rew
##ths
##uching
##umption
##wang
battles
bloom
blush
cameras
chicago
commands
crumbs
dazed
differently
emptied
ernest
flown
frederick
haggard
harness
hasty
hector
laden
measures
milky
panicked
parking
pausing
perished
pies
sovereign
stangerson
strangest
tavern
theatre
thorn
weaker
wednesday
welcomed
##afe
##athan
##bbling
##blin
##bor
##friend
##gging
##gnition
##helps
##linched
##mother
##natural
##ossibilities
##ours
##pel
##ply
##pot
##real
##rition
##ross
##sively
##ssy
##tting
##ucated
##uched
##ulge
##ums
##una
##yer
##yler
athens
blamed
boards
bout
bred
chained
claims
conclusions
convincing
crushing
dangers
dealt
deceive
deliberately
destroying
eats
erupted
firing
hairy
heed
instances
introduction
kitty
launched
maintained
medea
partially
patrick
personality
physician
pillar
policy
pondered
poorly
proportion
refer
relate
replace
rumbling
sighs
sincere
temporary
torment
twitched
whereupon
##ablish
##ained
##any
##combe
##date
##dge
##folded
##fresh
##fury
##herent
##isation
##itary
##lion
##loring
##minate
##nect
##oping
##othy
##oven
##pproval
##rad
##rek
##runt
##tical
##uckling
##umai
##vate
##wards
additional
armies
authorities
battery
booming
communications
construction
crackling
exertion
folding
foster
furrowed
hats
jagged
jerked
jonah
jove
joyfully
kidding
lining
meetings
milverton
mimic
odin
parent
pleasing
ranks
rushes
selected
sights
simultaneously
sped
stag
stepfather
stung
sweetly
tests
tortured
turner
##cas
##cers
##ciful
##cling
##dor
##elina
##eo
##eries
##folk
##ganization
##glasses
##ignant
##immering
##itt
##ko
##licate
##liment
##nish
##ogue
##ouse
##pa
##pion
##rady
##raka
##ssa
##uised
##ull
##urous
##using
##water
abyss
alfred
beats
bhaer
boarding
brixton
buffalo
casually
colours
congratulate
crane
creaked
crowds
cruelty
depart
discovering
drift
floors
forthwith
founded
gear
gems
gravel
growl
horner
incidents
inspection
journal
kissing
laptop
mage
mischievous
moby
moscow
negative
ninety
occurrence
opinions
painfully
permanent
physics
pinched
pope
precaution
purely
rider
sid
situated
slay
stamp
supposition
sweetest
symbol
tension
toomai
travellers
trifling
unlucky
vicinity
wasting
zombies
##adin
##arted
##bank
##bridge
##capable
##chester
##ciated
##ebber
##gile
##hin
##human
##iency
##ila
##ili
##imately
##isa
##itably
##ives
##lder
##leigh
##llable
##lutter
##mash
##ollen
##orable
##proved
##rium
##roll
##ruff
##uad
##uid
##vil
##vities
adelaida
affect
application
attained
attendant
bellowed
bond
canada
cask
chad
cheers
circular
coals
compass
complaint
cricket
cups
deposited
drawers
drone
goats
herbs
horrors
industry
jerk
joyful
juice
loneliness
lottie
manor
motives
overheard
perish
piano
pickwick
poisonous
possessions
proceeding
prodigious
puffed
relatives
retorted
rubber
scar
september
shan
signature
slower
sometime
splendor
spout
stack
stanley
startling
streamed
swirled
theater
threats
tigers
transformed
trevor
vampires
vegetables
##ales
##arm
##ban
##bedient
##ewed
##ght
##hot
##idy
##ilt
##kind
##lang
##lapsed
##lator
##licable
##mmer
##mous
##nified
##ofs
##oicing
##orate
##orous
##pute
##rates
##reath
##renzy
##rial
##ricked
##riety
##rinkled
##risoned
##roposal
##rose
##rted
##rumble
##sisted
##woman
##zard
avail
beef
bubble
clair
dart
dew
dupin
dutch
enveloped
explanations
flashes
gallows
glove
hopeful
jeans
kisses
mama
mane
marrying
mirth
percent
pleasantly
praised
puzzle
rack
reception
regularly
rocked
screech
scroll
shoemaker
shuffling
significant
slope
spade
sparks
spelling
spiders
springing
squirrels
straightened
stride
vanity
visage
willow
##!
##"
###
##$
##%
##&
##'
##(
##)
##*
##+
##,
##-
##.
##/
##:
##;
##<
##=
##>
##?
##@
##[
##\
##]
##^
##_
##`
##{
##|
##}
##~
##£
##°
##æ
##œ
##—
##‘
##’
##“
##”
##⁄
